[PAS]
[UNK]
[SEP]
[MASK]
[CLS]
?
_
a
b
c
d
e
f
g
h
i
j
k
l
m
n
o
p
q
r
s
t
u
v
w
x
y
z
²
º
½
ß
ø
##e
##v
##i
##w
##u
##g
##n
##a
##c
##o
##s
##r
##k
##l
##y
##m
##t
##h
##b
##d
##j
##f
##x
##p
##²
##q
##z
##ß
##ø
th
##er
the
##in
##on
##at
##en
##es
##or
##ed
##an
##ing
an
##ar
##al
##ou
to
in
##it
of
##is
##ic
and
##as
##ion
##re
##il
##om
##ent
##le
##el
##ot
##st
##id
be
wh
##ct
is
that
re
##ut
##ve
##ow
##ly
##ig
##ol
on
for
pr
##am
##et
st
##ur
##ad
##ch
##ce
it
##ay
##ation
##ver
##ill
##im
##se
##ir
al
as
##ter
de
##um
tr
you
##ith
##th
##op
con
##est
sh
with
##ers
##us
##ul
##ess
ha
##ld
##ere
he
##ist
fr
ne
cl
##ac
##ain
##ate
was
##nd
se
at
are
ch
##oc
##ak
this
com
##os
##ment
##and
##pp
not
su
by
##int
##ag
##od
we
##ht
li
##em
have
##nt
ex
or
they
##ore
##ould
from
##ort
##ump
##ary
##ant
ab
##iv
##ity
##ial
##ab
has
##ies
##ust
trump
le
##art
##inton
am
go
clinton
us
##un
##ight
##ia
##out
##ber
un
who
##ie
all
##ive
his
##if
but
sa
will
##ction
do
wor
##all
sp
##ack
rep
ar
their
##ich
##ud
##ost
##ra
##ans
ag
pol
##ell
##ars
pro
##end
##our
im
its
##ign
no
##ally
##ub
##ail
##ast
##ome
pe
##ge
ac
ad
out
##ok
new
can
##ect
##ous
don
##ap
##ice
if
##her
cont
about
##iz
pres
off
her
so
##ard
me
ev
br
res
##oug
more
##ine
were
##pl
man
##ke
##ib
ele
##ound
en
int
peop
##au
##ident
one
af
em
##ated
##ence
pl
cr
hill
your
would
said
what
##pt
##eric
people
gr
##ong
been
hillary
up
##amp
##ish
##ely
##ations
##lic
##one
##ite
just
##ian
##age
##ip
americ
ob
##ount
##act
##og
##for
##ind
##ure
##ake
tim
##ical
##ide
##ther
dis
over
bec
vot
when
any
##ose
##ace
she
##ire
bl
which
##ile
them
president
there
acc
##ough
dem
##cl
als
had
part
##ame
##ult
our
##ue
how
##ates
##ry
##ff
##ass
per
##ublic
##ens
##ions
##own
than
##ook
##ew
##ear
kn
some
##per
##ays
ever
also
med
camp
##ach
##ob
election
like
att
comm
act
##ord
inter
##av
get
und
##ks
other
app
##oll
##qu
##ep
##ec
state
##hing
la
supp
##rat
##ress
##ause
##uss
my
again
inv
tw
ind
##reat
##ase
te
comp
into
##ru
sy
##ors
after
qu
sec
##aign
##com
campaign
##are
pre
##ro
##ict
sc
even
##king
time
##ory
ser
rec
##day
##ious
##able
fir
##ree
now
every
count
##ood
him
polit
these
##uc
##oss
##ey
democ
wom
because
##ition
##ism
email
##ance
##ald
##fow
##itt
##ied
##fowars
only
war
##ings
could
report
most
obam
cons
right
##ons
##vern
des
under
##ade
##ond
##enc
##ang
##old
##fe
##ears
##als
imp
news
##ft
##ents
govern
ver
know
mar
being
fl
world
##ik
##ink
##ational
##wn
did
against
##ning
democrat
ass
bet
wr
dr
many
##ists
po
donald
rel
see
media
government
##ild
##fore
say
##ful
##elf
##ick
ter
exp
gen
mo
##form
##fer
reg
##ah
##ath
ph
##aking
law
want
thr
back
##infowars
##alth
first
co
##ater
should
call
##ters
offic
russ
##ert
##vel
bel
##ited
##ww
dont
dec
years
then
obama
those
invest
##ves
##ving
##ys
##other
##we
hel
str
##ating
may
show
while
before
##igh
##oup
inc
states
rem
##ower
sch
soc
found
##ces
prot
republic
##ked
##ont
##uch
##oth
mill
##und
##lim
ro
american
well
##get
##utm
need
jo
##br
##vers
##gan
way
##ics
##ities
two
cor
##clud
own
dep
fe
##bi
##ret
##ise
##les
oct
where
women
add
min
contr
##eral
does
white
mon
##ph
##ments
down
id
##ved
##man
##urn
day
public
investig
hum
make
going
form
fact
##ual
##uth
through
lead
def
##ince
##uring
##ri
gu
political
fbi
such
long
bill
sur
##iss
##ee
bo
support
##he
art
##ible
includ
##ues
##ution
##xt
work
pers
real
##arly
very
##ying
cour
##tt
take
##ope
car
think
clintons
##ness
lo
look
group
terr
let
##cc
inst
post
dire
resp
col
##iew
ins
end
prob
##ged
##ouse
mil
ban
country
##ased
fin
##ober
el
##its
##read
belie
##force
##cent
##ative
last
much
##ern
sm
##ting
october
##ually
point
##air
##oun
##orn
##ange
aw
imm
##iet
##led
put
##ock
##let
happ
##der
ke
mus
ma
good
##gr
##lish
power
##ily
##ording
during
conf
##con
eff
nor
##ctor
house
year
help
made
men
##up
life
sign
since
##aim
##ands
##ines
##ather
char
gl
mem
par
##stem
cre
national
op
why
##ration
left
sen
opp
disc
##ific
mat
never
er
##ash
##ently
sub
according
sour
black
##ollow
system
##ms
crim
another
##tern
adm
high
##iol
##ians
vote
follow
official
##ork
cent
attack
##mber
united
##ject
claim
fam
num
##omet
##gress
person
tal
sim
america
wee
##lam
##rael
contin
ant
prop
##ween
jew
organ
between
##ced
same
##az
inform
stud
still
police
bus
##ency
ir
##red
read
##ins
big
##ier
##ural
nat
human
terror
health
percent
milit
here
cand
cle
htt
sw
##hip
prov
secret
presidential
far
es
ent
israel
democratic
http
##thing
##ized
il
use
##pr
expl
leg
great
##ull
##ants
trumps
##ize
##ever
##ton
ext
##ought
candid
##ward
emails
##ene
##cept
plan
poss
##ten
child
commun
##brain
both
##hn
bu
bre
##wh
##ives
poll
fed
told
##gest
adv
##brainforce
##leg
viol
chr
million
##io
##oney
ref
##acy
start
pop
spec
sl
somet
##ale
inf
##atch
econ
food
##ility
##vember
quest
econom
##ug
##ren
polic
##ically
artic
##ention
##ts
november
##anc
##olog
##ason
next
dif
party
##oy
intern
ed
##osed
face
##ned
vide
main
activ
##ites
est
iss
republican
maj
det
used
##rem
oper
lar
around
der
##akes
muslim
popul
##lect
sex
investigation
times
information
cap
fre
major
##ric
stand
head
##ty
air
##ody
voters
syr
case
money
fil
##ave
##less
islam
rele
hist
den
might
run
##ately
priv
##ures
##bers
ret
find
must
##ner
deb
turn
trans
##ote
red
##ivers
prom
keep
##ife
former
auth
social
says
comey
result
free
##inist
come
depart
prod
##ger
##iel
beh
month
move
russia
##ames
got
##ann
thats
interest
today
##ium
elect
##ctions
##ool
americans
kill
press
ear
mor
##co
##www
seem
really
federal
eas
mind
##by
rev
##ially
too
prev
cur
ge
##ax
things
##ior
##iness
without
##aks
proble
vict
##rib
##ision
##ider
proc
alread
reported
bar
die
hand
source
already
##used
liber
force
ann
week
##ds
##aug
##att
control
including
department
win
ide
fore
exper
john
pa
##med
##ream
job
##yp
however
few
##res
stop
##ime
days
##idence
##ones
compan
##ots
city
##ised
allow
eur
##inal
httpwww
##ets
washing
pay
##ience
##ected
arr
something
pod
justice
called
happen
military
civ
ra
rest
christ
##oub
secur
har
tell
##uct
sever
##ung
author
met
pat
prof
##rupt
video
giv
##ably
##ient
##ix
##yn
top
##ute
nothing
spe
incre
best
##ains
import
cult
##ling
##ided
fur
past
glob
differ
##outh
open
##bs
office
foreign
##ony
##urs
civil
mod
set
##self
##ained
administ
care
loc
believe
##ined
democrats
##ov
lik
feel
##ices
committ
washington
const
##uck
pos
##ias
mean
ein
nom
##sel
##ides
play
article
jud
##ization
mass
##ges
##ops
cond
rac
podest
##ared
##ief
fight
question
three
place
voting
actually
less
##orters
candidate
conc
family
threat
order
rad
##ways
dest
##gin
brain
dist
fem
##ending
rights
general
business
cert
##ital
matter
ira
##ense
##empt
away
number
sol
york
##ends
water
##ified
av
fund
##iver
better
##velop
iraq
pass
account
##itter
fri
mr
##erv
once
occ
sug
partic
school
doesnt
become
children
home
director
security
unt
requ
##ether
secretary
europe
yet
##be
eng
mark
global
##ourn
watch
thing
court
officials
least
aff
gener
ste
history
##erc
##ush
tech
##idd
reason
change
didnt
book
##ipp
##iting
develop
enough
second
phot
effect
##ina
##ury
hard
##oad
##erg
always
##infowarscom
russian
immig
##iversity
fail
story
##thers
##earch
night
congress
share
super
##ages
serv
give
ca
##crib
##ries
##enn
republicans
##iety
others
##ploy
private
podesta
list
pub
cal
del
making
##ister
grow
several
##ued
class
meet
simp
##arch
##stand
live
research
##lished
process
mos
##aff
##te
curr
administration
##ering
##aring
net
content
miss
pal
##over
conv
doing
woman
##ittle
jewish
important
##book
foundation
ago
crit
saying
policy
sk
evidence
each
bad
little
##aken
among
having
##rug
##itch
##ases
god
journ
non
likely
four
decl
##ird
syria
techn
nation
##por
##ark
##ising
whether
anything
view
##ape
lat
sure
consider
iran
illeg
##selves
certain
cant
complet
strong
fo
vis
though
course
pot
##uf
##aining
##ead
##ured
abs
came
full
groups
until
sn
ther
seen
interv
north
dav
wrote
##go
ce
gre
wik
death
##ular
##orts
record
##edom
##ived
cover
hes
estab
tar
##urch
cho
saud
##oke
direct
mis
sent
youre
working
special
##app
forces
##irl
trying
##ither
##eech
##inc
asked
youn
facebook
ball
within
level
corrupt
lot
##iam
##ember
invol
problem
suggest
gun
##pect
rece
speech
done
test
##sec
##ileaks
clear
body
dam
wed
##oph
using
discuss
##ination
coun
##ered
##uly
##ank
##aged
##unch
event
given
journal
girl
nations
tax
relations
colle
##uge
theyre
appro
following
wikileaks
self
##els
stre
##ator
##estern
lear
international
attempt
supporters
fall
##nes
##life
arm
##ended
entire
nomine
##lich
thought
##lex
protest
hold
ple
took
##ired
bank
bas
##iously
able
appear
indust
possible
##den
months
##ional
dev
comment
announ
mess
sus
south
##ison
alm
cit
deal
members
true
##ract
further
val
##par
##iter
truth
reports
small
vir
isis
means
released
later
##well
often
isnt
##the
instead
fac
mich
reve
lives
freedom
##ral
exc
concern
equ
comes
##ove
living
legal
##ology
rig
treat
western
afric
theres
early
##gn
##ck
arg
known
recent
company
##ids
trad
##raph
##ards
everything
different
target
sor
relig
financ
natural
##ne
infowars
short
##place
laws
behind
profess
kind
##ike
##use
##alf
##amm
step
front
wrong
repres
countries
desp
infl
james
##ging
##aw
##ality
##ential
##htm
acr
cann
themselves
young
##ories
saudi
sit
taking
##ored
tot
##utes
everyone
sat
##ample
twitter
##health
makes
went
##land
close
compl
economic
div
hope
##line
##itution
along
exec
##une
arab
getting
nominee
doub
published
##erous
university
anyone
criminal
ap
old
tur
##ument
##ively
accept
continue
david
hor
name
race
rather
##aud
##esh
society
mag
sal
ang
##store
ill
citiz
mur
##ault
##oint
team
ident
hour
sing
##sh
violence
ris
##olution
succ
someone
fut
try
toward
neg
##ivid
protect
build
##augh
et
fav
rul
##way
##ted
##ata
project
medium
##ruct
##sw
begin
jews
illegal
interview
dang
##stream
extrem
across
yes
hillarys
elections
understand
decision
##orney
father
mach
##new
anal
agree
##ellig
access
attorney
palest
##ortun
progr
bene
pet
pain
typ
##rw
love
arrest
almost
doc
prim
canc
individ
shows
added
foc
land
##nn
##uses
outs
bring
##attle
##iddle
bom
wall
##wid
##ane
billion
netw
establish
wednes
##hr
##ators
comments
intellig
##placement
either
host
key
##stz
stat
ground
mainstream
islamic
##ield
##uutm
##sy
##eng
##andwell
##aps
##comhealth
campaigninfowars
##infowarslife
##infowarsstore
##limstz
##getutm
##nessinfowarslife
##brainforcehtm
sourceinfowarscom
httpwwwinfowarsstore
destro
influ
mediumwid
##rwuutm
##placementutm
##andwellnessinfowarslife
##comhealthandwellnessinfowarslife
campaigninfowarsplacementutm
##limstzrwuutm
##brainforcehtmlimstzrwuutm
sourceinfowarscomutm
httpwwwinfowarsstorecomhealthandwellnessinfowarslife
mediumwidgetutm
httpwwwinfowarsstorecomhealthandwellnessinfowarslifebrainforcehtmlimstzrwuutm
##ott
##aper
##epend
polls
success
##of
near
##ences
community
mom
middle
##af
example
##ify
large
fire
taken
##ll
sho
brit
seems
represent
los
##oid
five
jones
wal
##ances
##icht
refer
statement
##itional
corpor
contentbrainforce
wednesday
coll
##ming
##ats
##utions
chair
env
geor
du
light
##uce
##edi
##ibility
committee
future
##xic
letter
issues
muslims
idea
side
##aled
dead
peace
##ograph
else
local
ep
ru
##inking
pract
star
chief
##izing
mas
rich
##imate
describ
leaders
bab
chang
independ
millions
oppos
latest
pm
##ening
##bert
##aily
employ
ur
##cle
##lier
##erm
reach
##amed
center
personal
victory
game
ign
##sch
staff
chec
itself
benef
fear
gold
line
##gen
##clus
respons
attacks
results
financial
daily
ey
east
var
##bl
##ateg
suff
politics
esp
##que
##asing
##istic
himself
conserv
defense
talk
majority
return
based
pict
tre
regard
conflic
population
culture
uk
##bc
##ett
enter
photo
hit
mult
##unt
##itions
simply
ve
##ades
server
longer
killed
base
##orid
##itor
alth
obs
earlier
meeting
aug
sand
##cont
answ
##oci
despite
intelligence
auf
##ler
##ises
blood
##ressed
##fully
needs
sexual
elected
program
although
hom
##atives
heart
emb
##ika
##head
cannot
action
fun
lab
##racy
third
##atic
began
coming
issue
friends
cir
cost
doll
lost
fraud
exist
politic
related
cause
##eth
deep
##using
nearly
repe
present
voter
florid
associ
data
##ven
##itive
##eless
che
orig
contrib
##pir
##ened
##str
amount
unf
words
cnn
lim
thous
alle
trade
##ensive
##ression
recently
oil
via
zu
##son
sup
cred
gets
respect
sources
position
dn
da
lyn
clos
signific
study
economy
wont
##uff
##berg
victim
half
##hood
debate
product
##uation
claims
simil
relationship
##news
prosec
##ecially
market
dom
san
wond
##row
##right
##raz
policies
running
street
florida
suprem
drug
nar
##ipl
##where
mal
##ube
detail
citizens
favor
aut
hon
hall
##uals
##ring
##amin
exerc
member
bord
dan
eth
son
##idency
teach
##ien
##aging
agency
##ogn
becom
common
role
organization
college
especially
alex
##ees
toget
word
became
famil
capital
film
paid
lynch
together
due
hell
jan
mit
mater
tues
ut
##rants
##body
##ada
heav
##acter
quick
july
##orter
progress
sym
democracy
probably
execut
hol
pur
rom
##mal
init
##rect
##ste
stay
saw
presidency
dise
scand
protes
crime
cast
ho
wa
west
##rew
##imes
christian
palestin
das
hus
led
##arian
##iron
shar
whole
design
phil
officers
looking
terrorists
breaking
prevent
service
single
kh
##ex
frid
church
votes
appar
wants
minor
immedi
syrian
please
cy
sil
##rop
weeks
educ
movement
modern
outside
##cess
lies
exact
whose
elector
##ruction
surpr
european
aud
battle
##rant
china
popular
##come
##onic
##oting
comb
respond
moment
pip
##uel
thurs
##itz
##leep
weap
goes
##raft
claimed
started
industry
opt
##amer
inside
george
significant
material
tuesday
fig
##ender
obv
held
strateg
bush
completely
establishment
environ
thursday
sich
enc
whats
senate
barack
cop
ive
je
sold
##haps
##fet
##ley
##lear
image
create
switch
massive
vol
##ray
##lt
worth
energ
##uclear
obamas
assault
##inese
talking
students
immigration
destroy
conflict
similar
bid
##isis
pred
##ularly
lie
repl
upon
launch
reality
created
review
speak
generation
risk
fal
log
nuclear
wer
##ery
##aces
##aced
soon
quite
organiz
interests
friday
hands
vo
##men
##port
##ze
##erve
##oms
##ows
discover
earth
hours
sound
zika
##ney
ones
##umb
##anda
candidates
paul
hat
ren
takes
##ried
chinese
evil
perhaps
final
break
current
susp
hund
rap
##eed
##itness
tried
yout
##allen
crisis
remember
##ission
opin
eastern
thousands
environment
actions
gar
rob
spir
##raw
ens
problems
liberal
critic
certainly
army
soros
total
ways
##uary
##rict
##ped
##elt
##iding
forced
leave
confir
operation
morning
absol
von
##ih
##ky
##ining
necess
imag
demand
##aught
eg
fair
##kn
trust
##comm
wanted
efforts
central
refuge
happened
murder
creat
cops
lack
push
won
##rain
##eline
##ading
search
noted
demon
county
phys
powerful
sense
crimes
constitution
avoid
potential
involved
bur
low
pick
##uments
above
##ability
expect
minister
surv
iraqi
girls
cancer
fa
ger
##tain
##ental
leader
propag
nature
israeli
august
protesters
ran
wife
defe
##ford
terrorist
allowed
female
situation
hundred
mist
##atever
wasnt
chem
##iforn
consum
feat
finally
ess
communic
oh
wel
whatever
print
prior
##ags
##ished
points
continued
mosul
announced
message
bomb
cases
hig
sleep
##ilt
forward
sept
spread
age
##uced
surr
corruption
rigged
aus
hate
paper
##ners
##char
trav
peoples
knew
scient
posted
putin
femin
african
bal
bir
king
rock
site
##inks
##lement
bey
##ully
##ips
supposed
recogn
joe
instit
debt
technology
green
dig
fell
##etic
##email
##iff
##ude
prep
march
leading
respon
effort
friend
californ
higher
##uted
##chen
area
webs
##ference
officer
lets
opportun
questions
internet
increase
answer
response
eu
hy
hot
##rim
prison
##istan
wealth
subject
numbers
determ
experience
network
electoral
energy
youtube
cut
mer
ult
##atory
##oring
town
##icult
uns
##key
term
decades
received
british
check
##inated
alt
conne
shes
separ
worse
events
impact
charges
specific
request
influence
alleged
hop
link
mention
port
##ael
##acc
chance
##alled
##ously
include
operations
scandal
pie
rh
rise
##isc
##uty
broad
##iple
accused
command
serious
addition
propert
growth
approach
wonder
gave
ist
lang
tv
##ij
##fect
##oul
##ival
##thern
decided
turned
fighting
false
mot
sie
##iber
##pro
attention
address
terrorism
dangerous
chairman
rule
organizations
kore
nut
##entially
ask
##ibly
enem
expected
region
conduct
occur
repeated
coup
nicht
vit
##cul
##oud
##lev
challen
##iving
conspir
correct
provide
standing
radio
deliver
cele
exactly
nach
path
##arm
stated
hac
usa
behav
companies
services
revealed
conservative
beyond
rape
##eration
##ench
princ
##sequ
trib
appears
indic
articles
histor
michael
sanders
pipeline
mic
sum
six
##vent
##ror
##de
##ino
##ouch
##asons
##rel
shut
enforce
science
impro
lawy
incident
minutes
guy
looks
occup
fox
##aughter
immediately
dark
##uit
inn
##reg
online
alone
brought
medical
appoint
prote
collect
senior
easy
corporate
independent
various
sell
##uction
##time
##aries
##itting
character
ballot
bure
tem
wind
##een
##jp
##ero
safet
##pload
perform
##rative
throughout
defend
##ground
harm
increasing
racist
directly
religious
towards
quickly
late
mc
vers
##off
##ilities
##uter
##uters
agents
##itten
##itted
yearold
failed
foot
dollars
husb
propaganda
safety
male
##wood
reb
reasons
resist
tex
flip
calling
facts
elite
happy
continues
analys
supreme
aust
ham
page
##iers
##dom
whites
except
perfect
maybe
room
possess
diff
learn
disease
california
bern
pan
witness
##iod
##more
##hold
##pan
troub
neigh
##ode
weve
##unk
arch
resour
accom
robert
neighb
gop
kad
##inary
##arily
alleg
hear
works
voted
showed
board
included
systems
arrested
focus
september
ach
fat
gas
mig
mart
ry
rub
##dr
##ana
##ster
##ceed
##okes
crow
indian
biggest
sometimes
choice
doubt
##ength
described
website
texas
band
kel
ok
wars
##hib
##eness
##ota
##olic
twe
assist
arabia
dnc
opinion
birth
eight
pen
tit
##lig
##iner
whom
##owers
##verage
##imately
##aked
brown
plans
##icted
boy
smart
subs
century
particip
damage
spirit
hundreds
difficult
lose
##rial
##ham
##days
##onn
##ingly
##ady
##adem
##esty
worked
armed
calls
belief
esc
jobs
giving
judge
immigrants
daesh
apparently
##ploads
sad
sort
##rod
anth
##aly
neural
areas
unl
object
period
medic
knows
mov
regul
happens
currently
document
individuals
chemical
bureau
kadz
dc
ich
jer
lower
purs
##uploads
##mer
tom
beg
stories
##ager
agend
meas
emot
poor
governments
speaking
counter
border
january
cath
pull
yem
##fr
##oles
store
dece
shot
heard
academ
brother
needed
##retch
defin
charge
provided
christians
complete
##charge
travel
celebr
dream
mcc
psy
ri
zion
##ients
##uing
##yr
ali
ord
abed
allies
serve
##encies
particularly
professor
##jpg
huge
##wp
thinking
inj
stra
sud
weak
prett
written
carry
##ledge
greater
##while
levels
rules
primary
##content
executive
absolut
pretty
cab
diet
ten
##iation
##ai
##mail
frank
william
spent
yourself
marri
below
monday
activation
patri
##rugg
education
necessary
##wpcontent
##wpcontentuploads
rally
wild
##ejpg
##ox
##ben
##inate
tro
unp
contact
mexic
indeed
studies
##brainforceejpg
release
httpwwwinfowarscom
supercharge
enforcement
psych
##wpcontentuploadsbrainforceejpg
httpwwwinfowarscomwpcontentuploadsbrainforceejpg
que
vice
##elect
##pet
##orm
##oted
chann
##ocks
exch
safe
emp
grand
prec
warned
road
organic
growing
simple
purp
langu
absolutely
fast
gone
mail
##och
##ores
##ama
strugg
##ume
dog
cultural
radical
avail
traditional
religion
ties
##iant
##uh
##isl
##isions
conclus
sun
arent
##iance
americas
##rovers
writing
parents
highly
clearly
committed
protests
palestinian
weapons
analysis
kelly
ken
##cil
##back
##ogle
disp
##enced
coop
banks
explain
foods
capt
previous
beginning
faith
ahead
none
rate
##uk
##ania
##asc
##ills
sund
leav
controvers
resolution
newsp
activities
largest
killing
mosc
conspiracy
gra
jail
##ique
##action
##lin
##aling
##ams
##ift
contract
terms
exposed
workers
senator
meaning
district
caused
cust
lob
mob
sens
##wor
##nic
##aire
##ris
##ball
anc
##estic
##osp
##ortion
nov
##play
enj
compet
##iction
surve
ready
electr
revolution
meth
affair
encour
bud
hur
##to
anim
truly
##ushing
##ulation
##ocking
cry
pret
regime
normal
anti
##azi
experts
agreement
duke
victims
##ropri
kadzik
tens
wire
##ese
##lection
youll
amb
perm
firm
healthy
activity
raised
authority
sett
career
snip
documents
individual
status
multiple
##ihad
opportunity
agenda
marriage
cities
june
loss
mother
send
um
wish
##light
##bing
##ented
stup
stretch
track
note
series
helped
designed
behavior
yemen
language
liter
##egr
##wise
##zen
##igen
notes
wouldnt
computer
nato
polling
##ological
complain
regarding
achie
tweet
abedin
available
braz
jihad
##sa
##rump
##han
##po
outr
heres
##ikes
advis
civilians
development
families
resources
fake
hers
##olit
conn
##agon
##olled
##ahr
remain
crew
violent
videos
effective
vitamin
average
draw
mad
mir
reuters
##ulf
##ago
google
spokes
showing
loading
oppon
standard
pressure
telling
particular
schools
##ipped
opposition
benefits
responsible
original
details
obvious
stupid
herself
bund
born
vet
##iate
thus
##iced
##aster
serco
feb
carol
clean
legisl
council
narrative
becomes
property
sunday
cold
hyp
vill
##cast
##yal
recomm
##americ
convers
doj
fired
warning
mostly
socalled
kept
plane
identity
practice
products
biden
method
gives
names
##wing
revel
##vert
alert
##antly
##ables
willing
spl
##rap
aggress
diss
dism
therefore
strength
matters
planet
records
eventually
politicians
prosecut
ensure
crowd
moscow
ale
bit
breat
cash
eat
pak
sac
##rich
##hs
##fort
##itarian
##ilty
conference
##akota
space
reporter
integr
commit
prem
worlds
guilty
claiming
numerous
circ
husband
ben
dir
jack
od
pun
rid
vor
##val
##aut
##bed
##bar
##bur
##atter
##owing
pros
##usal
##istry
chic
telev
scre
served
seek
##lets
editor
comeys
experi
engine
skin
confirmed
caught
zone
##me
##jw
##ellect
##aded
##ifying
save
emerg
places
parties
##ript
guard
parl
buy
racial
visit
exercise
physical
german
couple
ryan
troops
bott
died
field
felt
kids
tas
touch
wnd
ze
zul
##oom
##mak
##ping
##ici
##erson
french
climate
offer
cross
upd
color
elites
previously
authorities
choose
basis
announce
machines
successful
baby
holly
defeat
connection
aim
dakota
fill
gather
##wide
##ban
##erved
prime
##ocked
exam
accur
accus
desper
expos
adding
farm
explained
filed
ideas
considered
iranian
##going
concerned
associated
bul
din
fol
les
mort
pack
round
sam
##craft
##mo
##bo
##ble
##org
consequ
##ague
lif
liby
worst
agre
supporting
pointed
##iverse
africa
horr
angel
negot
extremely
walk
eyes
hollywood
burn
cens
jur
sjw
uber
wins
##uz
##cing
##rated
##etor
training
##oken
meant
blue
moving
russias
sched
guys
proper
humanity
racism
researchers
guns
virt
concerns
changed
employees
launched
communications
##prof
repeatedly
channel
sess
tact
##tion
##fl
todays
forget
altern
deploy
shown
##usion
france
intellect
commission
actual
consc
assange
drop
remains
award
subst
advoc
advant
treatment
##ography
exchange
carolina
cas
dies
diversity
kur
mike
swe
##mon
ine
##vement
##che
door
reporters
noch
presence
resident
supported
believes
memo
solution
machine
type
eye
unfortun
honest
shares
sudden
bes
cub
fully
kid
named
##sc
##erate
##aming
stage
##term
union
afp
thanks
couldnt
feed
##letter
frequ
liberals
patr
ballots
journalists
industrial
negative
building
analy
voice
imagine
movie
alepp
parliam
pil
##set
##ature
##isan
##icit
##icated
##iro
seven
weight
appe
india
desire
newsletter
aware
explos
reduce
meanwhile
condem
effects
critical
rhetor
december
cell
dass
dict
ju
sites
wals
##net
##inent
reop
##istics
##antic
impl
grant
disg
acts
appeared
##ructure
networ
picture
labor
ethnic
aliens
cat
kar
ms
penn
##iest
##down
##icial
##otes
beat
##ols
trial
##aine
sea
amaz
offensive
knowledge
park
increased
affect
views
becoming
figure
straight
conclusion
chicago
bed
eine
fle
rates
zero
##iated
##hal
##do
##edge
##itude
##rec
stuff
select
unless
spending
arms
hero
manage
##olling
express
joint
student
populations
moral
require
values
satur
leadership
drugs
volunt
discovered
refugees
fellow
piece
aleppo
di
gut
jon
lands
squ
##zt
shared
hack
click
##acare
ability
outcome
##ounded
introd
appl
statements
additional
##ification
attacked
issued
winning
books
discussed
parliament
bias
ec
fix
mount
sick
vast
##ram
##ront
##iny
whist
notice
adop
##apan
manip
##ounding
presidents
thank
scen
realize
putting
extra
refused
aircraft
deaths
suggested
learned
shoot
##stein
wait
feminism
bernie
anthony
outrage
pakistan
ber
bor
dub
lor
las
##ius
##non
##ait
##ken
##ha
reject
ongoing
fort
deg
youve
unc
agencies
plat
crash
##ension
reporting
coord
incred
remove
surf
blacks
militants
possibility
built
maint
promised
tells
destruction
funding
convention
streets
device
virgin
credit
symb
williams
bon
cia
daughter
fif
hosp
jes
nur
##sp
##lv
##ho
##lying
shap
##osh
univers
##iful
spoke
blog
##cles
partners
regular
coal
##othes
looked
propos
provides
moroc
happening
positions
passed
required
mission
basic
ukrain
deeply
##iplom
##know
ultimately
korea
custom
agreed
advantage
saturday
diplom
hous
ment
mac
tags
wie
##nam
pray
stock
##uries
conclud
goal
spend
##apers
brand
intim
text
consult
flag
##ahl
remind
##others
judges
accounts
declared
receive
changes
reached
minority
destroyed
accompl
catholic
television
gang
mel
rout
##hen
##how
##any
##itable
##iders
reform
##ige
cha
grab
obst
block
##ucks
obamacare
huma
insist
believed
charged
reading
easily
difference
positive
##ipping
classified
value
shooting
##etta
surprise
featured
scientific
protection
neighbor
enjoy
affairs
craz
mid
nav
##ext
theory
##onald
##icient
##iled
exclus
##iven
acqu
canada
blame
##clos
prefer
drive
publicly
signed
readers
legit
production
##ields
##cover
watching
entirely
suspect
ruling
combat
soldiers
werden
jerusal
networks
whistle
dar
file
##ma
##bel
toxic
##elle
##ires
##emon
acknow
plant
attract
##ruary
politically
russians
remo
joined
mins
investigations
territ
confront
creamer
followed
talked
holding
##sylv
hallow
separate
lawyer
pennsylv
jerusalem
cook
cbs
fb
mix
mouth
pill
pul
tend
##ii
##field
##ps
##zy
##orc
infe
##itation
asian
asking
canad
##ogen
seeing
phone
playing
institutions
leaving
february
auch
bod
date
ges
river
sides
##work
##bal
thor
##imm
sher
shall
hearing
abd
abortion
afford
otherwise
write
founder
posts
northern
opposed
greatest
slow
edit
transfer
stopped
turkey
danger
audience
enemy
rhetoric
aid
camer
eating
figh
##iqu
##otic
rein
sein
imper
##apse
offered
emer
presidentelect
perpet
myself
scott
##ossible
expressed
boost
includes
starting
mrs
listen
decline
learning
apart
magaz
responsibility
daniel
demonstr
innoc
boss
dann
fer
mand
pence
##wer
##lad
##bart
##ding
##post
##ena
##anced
##itely
##icide
##eld
##irt
ash
neither
##agn
##elled
prove
disapp
parts
tea
consist
implement
impossible
drink
register
insur
countrys
highest
planning
advance
airport
turns
yester
criticism
virginia
intimid
halloween
pennsylvania
dish
lines
nbc
sending
##oon
##yle
##hic
##bre
##onom
##alt
##iles
##ctors
asia
franc
##osen
##osph
web
theyve
usually
##elling
context
active
campaigns
ministry
leads
##ception
estim
transform
reportedly
engage
causes
##archy
established
specials
professional
benefit
hacked
improve
increasingly
allegations
subscrib
purpose
chaos
jury
ped
rat
rall
sou
vacc
##lers
##min
##part
##itbart
weiner
##abe
amend
proof
##apt
##ples
plus
##ishing
supporter
guess
box
possibly
activists
collapse
creating
medicine
unfortunately
jul
lay
mans
nice
##iert
##witter
##ule
##ka
##bn
##pay
thinks
##icious
##iling
beaut
##utation
shame
leaked
users
spray
prohib
offers
broke
belong
investigating
max
crimin
##iolog
talks
swing
entit
internal
produc
interesting
proced
##onym
solid
fundam
##idden
suggests
##ophob
steps
double
sales
vehic
origin
strategy
##known
beliefs
##american
##oomberg
alternative
walsh
bond
bull
fing
purch
pushing
rush
sar
ton
tour
wid
ye
##ios
##cript
##enty
##ador
##ems
abuse
donors
##izes
##ounds
##ruck
deputy
insult
banking
personally
explains
communities
breitbart
liberty
paying
patients
condition
failure
potentially
extreme
master
palestinians
cyber
occurred
##related
zionist
announcement
dinner
fbis
ble
dut
duck
fool
japan
ny
rose
sel
wis
##iar
##ux
##uana
##nel
##ki
##hand
##hab
##fir
##atically
##orted
##ogyn
partisan
assess
writes
schem
minim
probe
##ashed
providing
communist
produced
##ovich
feeling
taxes
naturalnews
totally
heavy
responded
jeff
##ropriate
spokesman
sessions
southern
beautiful
gain
iow
lying
rand
van
##eper
##kin
##hol
##atar
##icking
##asion
concent
sust
uses
##igned
contain
manuf
intent
emph
display
##coming
##room
scene
seriously
decisions
immune
signs
##whel
denied
privile
keeping
einer
causing
misogyn
facing
argument
tradition
targets
peter
billionaire
goldman
dollar
figures
obviously
digital
mentioned
micro
cooperation
dirty
##burg
suddenly
yesterday
manufact
bi
fot
luck
merc
nine
rough
##ba
##reh
forum
pra
price
stol
aspect
exorc
hasnt
acting
writer
seeking
decade
leftist
swed
planned
larger
standards
promote
congressional
strongly
attempts
magn
etc
babies
pictwitter
environmental
nutr
survey
platform
neighborhood
innocent
pard
##si
##point
##ona
ingr
stun
stood
##ado
##iment
trig
trail
wearing
##arsh
##astic
advert
brief
reserve
commerc
applic
underm
knowing
expand
moved
boys
helping
bigger
played
considering
ceo
counsel
desperate
residents
diverse
fine
kil
native
qatar
tun
vul
viet
##aus
##rest
##load
##ypt
##mar
thom
##inct
stim
##ulated
comfort
gov
outl
outlets
mehr
brut
grad
overwhel
attend
teil
carried
##ancy
expert
coverage
speeches
testim
losing
homes
hotel
enemies
definitely
unpre
zulu
loretta
rallies
card
ded
##gas
##oo
##dc
##arter
##ilit
bear
##olf
stone
##illion
trip
shout
##acing
lived
spin
reputation
sov
soft
resol
manager
compared
complex
secure
governor
flo
assert
drinking
##icked
ended
bannon
oppose
erst
chronic
produce
seemed
##resp
speed
##oval
discussion
opposite
regardless
programs
favorite
initi
predict
mistake
determine
motiv
titled
integrity
entitled
aide
gender
##vada
##iable
##care
##here
stress
##chs
##illing
shop
nobody
##oking
apple
womens
warm
##ikel
background
instance
institution
reflect
larg
arrived
conditions
english
targeted
citizen
minorities
weapon
essentially
ohio
conducted
orders
mexico
newspaper
opponents
village
revelations
screen
scenar
amendment
core
fit
kaine
lady
soll
wird
##uous
##gl
##gles
##bit
##inet
##ani
##anch
##urally
##ceph
##illon
shr
##ulate
season
unique
spot
##ooked
##aves
##athan
join
owners
helps
glass
httpst
explan
engaged
developing
publish
taxpay
britain
peaceful
closer
borders
sympt
materials
copy
version
resistance
kenned
budget
animals
##makers
libya
volunte
iowa
soviet
largely
bag
cow
jose
kash
ox
oder
##gar
##ghan
##rad
##based
##eled
proud
##add
alien
##thew
nevada
clothes
##umption
##usted
##iev
proceed
newly
anymore
moon
shouldnt
decide
guest
loan
##cedented
heads
deny
reven
johnson
fundra
steve
developed
effectively
turning
salt
treas
treated
limited
heavily
progressive
philos
consumer
merely
altright
linked
##ijuana
lawyers
measures
literally
emphas
pictwittercom
testimony
unprecedented
apr
bra
gaz
hang
jet
lond
##ef
##gs
##lines
##inity
##ille
##oman
##lements
##owitz
onto
##uled
havent
##acity
suc
alliance
span
broken
crack
overall
qual
everywhere
underst
##athers
pharm
artikel
norm
electric
allowing
players
threatened
funds
journalist
attempted
virus
sorry
bringing
corporations
mascul
independence
treason
costs
association
dna
romney
werent
rapid
constitutional
survive
specifically
tweeted
jesus
sheriff
##osphere
ay
cart
era
hay
hunt
ih
lemon
pour
soul
tight
##ixt
##oat
##rum
##rations
##dict
##era
anger
##iger
forg
##verse
##opath
haben
club
##ivity
amid
hispan
doz
spons
obt
anyway
supply
compr
##orship
quality
##rov
##road
throw
remar
schl
investigative
attacking
proven
explo
retail
raise
harass
generally
missing
absent
grew
basically
reveals
focused
conservatives
function
utter
replace
egypt
recognize
prepared
principl
controversial
veter
dismiss
wisdom
##cephaly
april
elim
fears
fuel
giant
lau
pent
pig
sir
##war
##nik
##mir
##orse
##itage
##ashing
station
aside
chap
##pper
##pped
noticed
##raid
afghan
afraid
plain
partner
##ords
firms
marijuana
pool
paris
##lamm
activist
harv
construction
sugar
globalist
immigrant
apolog
accepted
angry
palestine
ignore
autom
waiting
institute
selling
empire
juice
management
degree
coalition
crazy
criminals
trigger
dozens
beng
ging
hung
pac
powers
rt
rising
table
vlad
wir
##can
##kt
##year
##mt
##jud
##fall
##itas
andrew
##ston
struck
alive
##ession
fresh
closed
waste
sector
##oses
##agues
goals
usual
##ights
uncle
spect
contra
heritage
intention
veritas
miles
smith
leftwing
antis
iron
healthcare
advice
##ancing
files
distur
feminist
steal
##standing
sky
appearance
rigging
baseball
amounts
domin
exercises
historical
summer
hamas
carrying
struggle
circum
emergency
accusations
folks
conscious
infection
canadian
subscribe
microcephaly
commercial
code
sitting
ww
##aft
##hazi
##bling
##xit
##pe
##arant
whos
##utsch
prince
stands
##imir
depl
unes
doctors
ariz
oblig
overs
ourselves
perman
##quir
warn
##ateral
monitor
forms
supports
postillon
banned
admitted
entre
useful
##what
revol
speaks
opened
threats
threatening
missile
reveal
equality
treaty
divided
understanding
suffering
philipp
options
speaker
sounds
reno
trouble
farmers
##profit
shapiro
camera
registered
ah
bob
dim
dump
eld
fault
fasc
laugh
links
map
range
sin
sab
wo
wing
ygles
##enom
anonym
##ils
bei
##uting
##sem
deals
##umn
train
haw
suicide
##abilities
##race
images
meg
manner
cruc
warrant
##encing
marx
genetic
millenn
controlled
download
guarant
insider
discrim
match
humanitarian
finding
transition
visa
excell
pictures
existence
relationships
domestic
allegedly
delivered
regulations
achieve
hypoc
premium
symbol
hospital
fighters
widely
philosoph
arizona
bought
fals
lock
lots
mook
mental
pestic
roll
sister
tene
##vant
##na
##hill
##bt
##fire
##atively
##anz
##arters
##isters
##icks
island
tra
sharing
##oda
lift
worry
recover
warren
marc
driving
societ
owned
courts
carter
music
##ashion
irans
israels
https
##pres
violation
violations
slight
gotten
minds
einem
congressman
deliber
michelle
horowitz
##contr
familiar
scientists
wealthy
dogs
ridic
bottom
censorship
intellectual
ukraine
whistlebl
overwhelming
london
ie
jed
kon
ly
mut
nd
nam
nick
rit
size
wow
wake
##iot
##iations
##win
##water
##gu
##kl
##dem
##inced
##eds
##isf
##isher
##ischen
##iring
##tered
##uslim
chin
unn
sav
sachs
imam
managed
camps
##rating
recall
drag
regional
perspect
direction
finance
matt
eric
subm
turnout
prominent
openly
feels
einen
affil
photos
messages
##ographic
variety
obser
romantic
commander
academic
lobby
ambass
sacred
task
update
customers
acknowled
pulled
magazine
insurance
sarah
kashmir
benghazi
vladimir
yglesias
mine
mons
oreg
pu
ske
sought
tort
wave
##eing
##nbc
##polit
##aning
##idge
sham
heat
neur
##abor
doctor
sports
placed
disag
overth
blow
apply
##anged
contrary
investigators
humans
loans
confident
infr
transpar
prompt
##anny
restrict
convinced
involving
suggesting
faces
turk
ignor
ignored
veget
teachers
option
connections
collective
tempor
austral
assistance
chemicals
bundy
prospect
analyst
territory
thorough
imperial
dishon
pardon
scenario
pentagon
hr
jump
ker
kle
mary
muss
pages
tick
vision
wide
##election
##uits
##aur
##oes
##roc
##hl
##but
##inform
inner
##isch
reaction
stal
##verty
concept
chosen
##agen
adult
##ogue
overse
anywhere
suppl
married
writ
poverty
remed
investigate
loyal
##ups
parad
leftists
famous
naturally
promoting
interested
raw
severe
profit
civilization
solutions
declined
##apped
lawsuit
typical
entertain
embar
sanctions
diseases
surprised
kingdom
martin
riot
newspapers
ancest
alerts
accurate
exposure
tactics
deployed
fundamental
symptoms
ambassador
bah
bully
catch
fathers
fashion
gall
hamm
kl
kim
kann
miam
na
##aver
##rig
##lie
##inter
##orious
toler
reward
##owed
##ola
forth
##uman
##agan
wear
abc
##ials
agent
donations
gro
##ampsh
blast
laid
twist
twice
quiet
recru
##ikely
assass
assume
coast
mayor
royal
colon
centuries
informed
operating
operatives
promises
earn
libert
allows
opening
civilian
ordered
accountable
covered
holds
argued
satan
types
representative
epstein
hitler
limit
silence
surprising
strategic
refugee
balance
determined
challenges
assistant
escape
hurt
brazile
connect
conversation
borrow
##iques
thomas
joseph
remarks
principles
monsant
oregon
dur
fan
huff
olig
porn
rare
tast
tough
tony
tape
##iating
##mark
##bie
shel
choles
liar
exhib
spring
contains
meat
resign
##ishment
##osevel
demands
somehow
teen
flat
income
roosevel
corn
matthew
brexit
finds
handling
weekend
journalism
colleagues
approved
devices
equal
identify
destroying
returned
honor
silver
surrounding
historic
occupied
footage
unlikely
encourage
complaint
aimed
consequences
amazing
incredible
maxim
obtained
antisem
cholester
au
bin
cere
fulf
kr
pump
rational
vac
##tons
##anth
##vere
##opes
##ulous
hair
habe
frust
lied
attrib
suppress
scale
expose
expression
phenom
strange
remaining
bills
boers
artific
column
##hips
extent
chris
economics
##ugs
##ricult
behalf
##ungen
model
setting
located
likes
constit
judicial
passion
viewed
absor
snow
approx
thoughts
excess
##ammad
division
primarily
bombs
referred
elsewhere
practices
closely
sanct
holy
##exp
cycle
audio
suspended
essential
feminists
prepare
hopes
incidents
queen
lobb
recommend
aggressive
concluded
##anyah
exclusive
julian
vulner
gingrich
circumst
bound
durch
ech
ja
kom
mitt
nsa
ram
sind
taught
wood
##ole
##sen
##lor
##da
##inating
inher
inquir
##ctr
alco
##ested
shock
##uls
##iveness
leak
agricult
adams
intended
croat
blat
blind
blamed
##owned
##ecom
quotes
warri
flowers
assum
poison
##icker
schon
root
##phone
milk
confidence
admit
antic
percentage
maintain
films
promise
easier
##atte
topic
judg
podestas
radar
netanyah
fourth
##apper
infowarscom
illust
extremist
statistics
suffered
khaz
welcome
broadcast
korean
begun
pulling
brotherhood
patriot
connected
experienced
emerged
kennedy
roosevelt
cholesterol
biolog
cars
dow
dyn
drew
duty
fest
gal
gew
gulf
hampsh
rot
sale
soph
##nis
##aa
##kk
##ket
##lands
##inn
anx
##ications
##ilateral
prol
stor
##urd
##illed
##sey
youd
##thy
shad
shift
shocking
sem
##ander
unter
##apy
brings
brock
enth
##auf
plenty
regist
corner
contrast
officially
antim
antib
##iox
refuse
edge
##lessly
findings
##annann
increases
##ucker
funded
convicted
involvement
approval
falling
profession
identified
representatives
suffer
initially
sharp
immediate
renew
murdered
consumers
supposedly
tribe
window
possession
panic
##onna
unlike
measure
germany
##iciary
kurd
jonathan
removed
tonight
scheme
nutrition
treasury
comprom
afghanistan
entertainment
batt
bacter
fly
fant
hide
hired
mog
mens
pure
pock
si
##ville
##uate
##aed
##oly
##kins
##tr
##born
##fare
##path
##erated
##erves
##isation
andor
##chec
##ayed
deutsch
conce
##essed
chel
##ocrat
##odes
aband
ami
##berts
unknown
novel
##gef
acid
##oked
offering
sovere
brothers
manif
##auc
plot
##lick
accident
##assy
persec
campus
synd
##comp
##comnews
scream
margin
genu
regularly
backed
cool
investment
strike
schol
terrible
letters
endors
household
error
proposed
organized
sexually
electors
annual
ideology
##ungs
meters
pattern
constantly
nomination
businesses
solve
currency
surely
attempting
falls
devast
shortly
loses
significantly
demonst
challenge
ordinary
wildlife
##backed
controversy
mobile
electronic
splc
inev
granted
bodies
ashken
estimated
foto
stolen
teneo
perspective
infrast
hrc
miami
##ioxid
bat
dm
fought
gh
gay
hind
jim
nic
nun
nyp
tak
vene
wur
##each
##uated
##gov
##rison
##ya
##je
##fo
##put
##pret
##armed
##iser
conver
shit
clar
clash
clients
##acle
exists
##orting
unable
sole
brag
tehr
compar
firing
everybody
countless
##ieder
flow
flight
dram
strikes
mills
owner
whereas
boast
memory
parent
subsequ
personnel
antit
antioxid
proph
##insky
##ologies
estate
liberation
raising
cultures
pastor
developments
critics
equip
arguments
walking
referring
describe
employee
politician
util
husse
apparent
properties
hacking
appointed
temper
emotional
cryst
prosecutors
breath
lifesty
angeles
scheduled
patrick
appeal
extraord
housing
ferment
intimidation
francis
kilomet
vietnam
floor
initiative
absentee
circumstances
hampshire
infrastructure
cin
cob
dol
fel
kir
sons
ssi
tyr
zum
##uber
##nc
##aust
##rane
##like
##trump
##dp
##alty
##elines
##sth
prices
deleg
frame
section
##nte
##ansas
##ansion
##ourse
bloc
bloomberg
##quit
compreh
quote
quarter
worldwide
moore
lawmakers
##ertain
guide
longtime
carr
pointing
creation
admir
keeps
resulted
payments
photograph
failing
skills
intervention
bankers
faced
michig
petition
focusing
collusion
deadly
changing
obsc
contributions
citizenship
initial
robot
hydr
wonderful
nutri
harmful
witnessed
okay
participants
spiritual
escal
pursue
emotion
contracts
opponent
legislation
virtually
condemn
dictators
hackers
universities
procedures
vehicle
stunning
explanation
veteran
unesco
premiums
##hillary
approximately
abandon
tehran
bow
bay
bash
cdc
ego
hook
hidden
jah
lou
rif
tired
welf
wides
zones
##iß
##woman
##ais
##rate
##ym
##hd
##bor
##just
##fre
##enon
##oux
tox
##iten
##elph
##stock
react
forb
prize
##ament
structure
ital
alq
ally
alab
trillion
##opoul
shots
hey
neut
##acon
notion
suit
theyll
abroad
##ifer
upset
##class
partys
##avor
appropriate
##rators
scar
flood
coff
protected
depression
feet
humil
formed
guid
endorse
followers
buff
buying
##white
inflamm
transport
handle
affected
##ructive
georg
presented
supremac
pushed
surrog
hoping
pieces
occupation
cabinet
mexican
sensitive
complaints
brazil
recommended
prosecutor
schedule
accomplish
privilege
spanish
turkish
nypd
##ranean
##opoulos
buch
bbc
kings
lic
oke
pow
wage
##ev
##watch
##cut
##ran
##ker
##my
##mod
##tv
##house
##free
##ple
##erce
##arre
##ales
tower
##ica
##asp
##etting
##adelph
italy
dear
deeper
youth
##abet
unexp
##ifies
##acks
##astr
donor
contained
disaster
suppression
quant
pregn
scr
warfare
impeach
flu
expansion
offices
remained
remark
removal
founded
roberts
depend
minute
longterm
eliz
nationalism
oppression
slaughter
capacity
releasing
administrations
judiciary
globalists
meetings
badly
covering
receiving
furthermore
smaller
older
acceptable
vegas
existing
##newscom
heaven
philadelph
confirm
greenfield
ultimate
towns
possessed
rubio
emotions
##mailcom
permission
legislative
uncertain
diplomatic
slowly
disappear
roughly
succeed
##politics
australia
groß
kurdish
sioux
chelse
extraordinary
ba
bere
cos
cup
crap
fish
hal
ice
jason
mere
nap
rum
trem
##wo
##west
##ss
##pread
##pired
##zz
##ari
##areness
##itals
##ila
whit
forever
##etts
stating
##ched
items
degen
sees
sevent
selection
choms
liver
##emed
exit
league
amn
##outs
unw
uncon
dozen
##ellen
##endum
##endous
outright
donated
##aph
reserved
crooked
disrupt
##ollah
teeth
quoted
##onsc
deserve
seeks
thrown
highlight
continuing
explaining
violating
starts
movements
arrange
differences
distrib
conven
convince
techniques
technologies
davis
choices
younger
excuse
targeting
risks
paint
entered
embassy
circul
cnns
credits
ethics
roman
creative
sleeping
recognition
digest
friendly
portray
micr
perfectly
captured
ancient
methods
commitment
dropped
sweet
reopened
surface
fifth
gaza
##ixture
contractor
permanent
overthrow
sanctuary
khazar
bacteria
equipment
michigan
widespread
unexpected
elizab
bub
biz
cock
draft
gly
gest
gab
gree
hedge
joke
ll
nas
ty
tab
vig
##efe
##cr
##cend
##oz
##ois
##oys
##sl
##side
##run
##yl
##donald
##fly
##pa
##erning
##esy
##isive
##isely
##ication
##asident
##state
##idem
##etz
storm
shed
sei
chose
chances
##unity
##berry
uncover
proved
donation
brook
##keys
crops
justify
overt
anybody
somebody
##quarters
preced
evening
serving
consent
verdict
driven
relax
joy
factor
##heim
smoke
militar
candidacy
##wards
advanced
operative
capable
headlines
handed
handful
restaur
concerning
##ervation
cease
directed
selfd
dealing
argue
kinds
richard
opposing
returns
closing
sympath
scandals
hatred
opinions
survival
bombing
additionally
migrants
precisely
grave
pretor
sacr
odd
experiences
substant
frequently
explosion
explosive
adopted
legitimate
sustain
undermine
understood
deplor
hypocris
acknowledged
disagree
monsanto
welfare
chelsea
amnesty
elizabeth
aer
aides
coc
hed
honey
jay
junk
ky
lon
lad
lord
lav
mood
mont
ron
rent
sight
##ware
##gi
##mas
##mons
##jo
##fri
##atz
##atural
##ara
##rees
##otyp
##sters
##stag
stream
##chan
hem
seat
atroc
chain
weather
unity
unbel
doch
worried
spite
reply
##eller
##enders
##ails
##izz
preserve
bright
enorm
discl
sheep
##irect
##clinton
pert
interpret
compound
##vernment
##angel
genoc
moves
phr
strict
contrad
##issions
ends
##ounced
awareness
puts
irre
breaks
species
relevant
barely
feelings
constant
questioned
threaten
occas
watched
courtesy
technical
stronger
recorded
coverup
misc
sentence
##lichen
represents
hopefully
murph
referendum
conflicts
entering
thousand
autonom
battleground
##zeit
absolute
tribal
shutter
performance
austin
penalty
injured
##elected
leaves
competition
breathing
odds
engineers
##board
morocco
consulting
legitim
cooking
##posted
pedoph
prohibited
finger
biased
copyright
volunteers
elder
crucial
discrimination
excellent
falsely
chinas
overseas
phenomenon
artificial
alcohol
warriors
netanyahu
registration
##aeda
manifest
athe
bible
bread
categ
cauc
dial
dign
fame
fields
gary
gap
hub
jane
mile
som
tag
wieder
##gor
##gate
##noon
##ca
##kal
##kom
##zuel
theories
##aters
##ester
##illy
##sthe
stars
asks
delet
trained
##this
shape
champ
##artic
##unct
##enden
donna
mechan
brian
resc
envel
##ipe
myth
indict
tele
syri
##ucking
consumption
relief
genet
regions
##ahn
coinc
foundations
investigated
guilt
busy
entity
legally
slave
mainly
airstr
retire
debates
reduced
procl
fewer
importance
location
passing
passage
generations
##cribed
researcher
absurd
equival
cannab
satisf
typically
hostile
reference
label
chef
limits
capitalism
demanding
preparing
migrant
martial
academy
mccain
filled
examples
applied
affordable
originally
random
aspects
sweden
brutal
taxpayers
chapter
philippines
genuine
takfir
venezuel
hussein
toxins
neutral
georgia
hypocrisy
bother
bunch
hann
lapt
math
sed
sames
##equ
##gers
##rome
##mare
##home
##bell
##dog
##pass
##povich
##esity
##orr
##anks
##inge
##ington
##alo
##icate
anderson
##oma
##sten
##idal
isa
##eta
stuck
assem
##opher
withd
##usetts
##istent
##acom
atm
##osi
##agger
##employ
frompovich
##anta
aber
unrest
spar
##uds
nofly
##asty
evident
branch
element
upcoming
obesity
perce
##earing
somewhere
mediter
##achusetts
afternoon
undercover
decre
##phos
defending
##rier
billions
courage
letting
insane
signing
charles
centers
violated
capabilities
headline
authent
seemingly
payment
patent
moderate
committing
radiation
distance
harder
gods
damaging
valid
horse
represented
ignoring
circle
contributed
credibility
khan
garlic
surviv
africanamerican
cutting
requests
indicate
husbands
exception
troubling
bureauc
counterpart
weakness
##world
tensions
yemeni
split
gathering
besides
condemned
reopening
rejected
incredibly
proposal
##closure
danney
consistent
purchase
httpstco
jetzt
normally
electricity
utterly
eliminate
disturbing
anonymous
##president
vegetables
lifestyle
okeefe
bizarre
glyphos
enormous
envelope
airstrikes
samesex
mediterranean
cul
dat
dil
dall
dumb
fab
fans
flying
gate
hin
hil
ii
lit
nv
pounds
pki
qur
ven
vital
##gun
##cy
##cos
##pm
thir
##inch
##inely
##atr
##ano
##ali
tool
##isa
##lem
##stitution
stom
##cher
##see
shell
ship
seized
##occ
##osing
##ema
##empl
##anted
unelected
allah
repair
arba
poland
contest
eval
mann
intense
cru
grown
apprec
##ecess
syn
recount
##anges
marg
investors
##unden
publication
formal
creates
ersch
secrets
##print
extended
actively
headed
headquarters
runs
authors
socialist
gef
ideal
massachusetts
certified
hardly
nonprofit
receives
testing
nominees
commentary
divor
teams
agreements
programm
epidem
politico
marketing
narrow
##itzer
replied
raped
demanded
fairly
features
spreading
balt
recognized
opportunities
hyper
##inois
birthday
begins
animal
settlement
colorado
mortg
properly
casual
kidney
dubrov
fortun
houses
naval
editors
vaccine
lucky
exorcist
comfortable
fundraising
rapidly
hispanics
societies
httpswww
slightly
klein
antisemit
lobbying
agriculture
syndrome
fermented
tyranny
philadelphia
shutterstock
glyphosate
quran
dubrovnik
ath
bang
dress
dpo
gm
gam
gib
jenn
ka
kiss
krem
muh
mothers
nerv
ol
punch
ray
rab
roles
ts
tel
tay
vs
vend
wah
##eh
##ua
##ga
##cer
##long
##you
##dd
##power
theft
##inos
##aron
inapp
##level
reagan
stamp
##adh
tries
trend
shirt
seine
seattle
##ocol
##osc
##osition
weil
lee
lew
leaks
units
ark
proves
##ours
meal
resort
moreover
##ibilities
empt
pled
plays
grass
##actic
demol
##ached
invited
teas
serge
recon
recording
##ucing
betray
expensive
moham
incor
##under
corresp
fees
ministers
controlling
endless
smoking
subt
reads
legs
buzz
refuses
infected
estr
privacy
barbar
raid
locations
lesser
##beit
globalism
nightmare
mosquit
declar
nationwide
pleas
illness
illinois
buildup
projects
interviews
epis
urban
cheap
combined
voices
discovery
suspic
criticized
cuts
defendants
movies
definition
dreams
encouraged
punishment
##attery
prosper
guardian
juris
cells
coordination
insisted
navy
apartment
##ophobia
oxy
dismissed
harvard
philosophy
ticket
bahrain
judgment
biological
anxiety
shadow
kilometers
chomsky
unbeliev
cannabis
atmosphere
mohammed
correspond
astr
dad
doug
fate
gonna
hatch
ihn
lut
marsh
pir
pair
ride
ted
tack
tsh
www
wahl
yell
zur
##eb
##actions
##oying
##sf
##ron
##rie
##rass
##bits
thread
theod
##esc
##arc
##isen
##oli
ford
##amins
stick
style
traff
##ulating
heute
neil
##acles
chick
##osis
##agers
##uster
ads
elements
enh
groc
##ipal
accusing
##ultane
knee
somewhat
attitude
commerce
##ressive
invasion
indo
tears
campaigning
screw
counted
impose
imprison
assets
regret
wanting
backing
##otherapy
helm
deport
adds
arts
loved
columb
ende
nationalist
erkl
follows
simultane
entry
##prene
breast
refusing
slaver
##ugg
dennis
retired
resulting
winner
harry
races
iraqs
stein
reasonable
listed
illegally
##liche
shortterm
horror
bombers
corporation
starnet
observed
##heads
prosecution
prosecute
exercising
executives
hole
silent
educational
encoun
predicted
sadd
celebrate
patriarch
purposes
budd
adviser
revelation
zeal
bullet
horrible
sjws
awarded
casino
bonus
##bala
yeah
##cription
misogynist
dedicated
masculine
hayden
forgot
consciousness
entreprene
dishonest
kerry
taste
enthus
professionals
comprehensive
nutrients
louis
pregnant
pretorius
dignity
dallas
##stitutional
arbaeen
bost
bind
cam
cav
citing
cogn
dun
gent
hence
hug
harsh
jr
kenn
mu
mixture
ng
tall
tank
ug
wounded
##vin
##rence
##kind
##la
##list
##lav
##lah
##yan
##mun
##mitt
##muslim
##top
##hy
##bod
##ders
##inf
##oral
##israel
##enth
##eland
##stit
##oln
priest
struct
alb
alter
truck
##opolit
shif
clim
seg
sean
##osn
##agram
weaken
abst
arth
##endo
##asta
##aped
presum
intens
##ption
gren
##iph
##active
whenever
##acht
actor
prejud
scrat
exports
##aho
realized
immer
charity
ern
swim
province
extensive
pollution
infam
edward
detect
denial
privat
stopping
globe
carefully
concert
distra
businessman
requires
fails
classic
palm
importantly
declare
visited
damn
facilit
equally
protectors
buildings
primaries
##after
collabor
describes
urging
enterpr
answers
existed
presentation
contribut
contribution
staying
optim
##eryl
physically
communication
rocket
##iscons
indicates
objective
pursuit
riy
tenure
surveill
pretend
aggression
zulus
negotiations
juror
tactic
maintaining
obstruction
teilen
laund
pesticides
ridiculous
rituals
pupp
writers
colonial
huffington
exhibit
antitrump
admiral
italian
buffalo
inflammation
tremendous
##onscious
equivalent
laptop
theodore
bath
cards
dre
dating
fs
gil
hun
hatte
jill
josh
mun
npl
ov
pf
pap
pund
papers
rang
rolling
tand
upper
##view
##iast
##with
##gent
##ny
##nets
##auth
##rates
##kes
##kan
##mont
##human
##bon
##bst
##xual
##person
##erpt
##iners
tow
##itect
##ische
##othing
beings
whe
##olics
##ete
stir
stab
stance
##child
alf
alph
##oping
cong
shia
ships
atl
chase
##ocal
comed
liars
unus
universe
spr
##acked
##oster
##ourge
donate
contempt
##izer
##plus
overl
accord
##ewish
attended
##quality
quo
sermons
##isms
flash
moh
regimes
cole
miller
defended
boer
booth
loves
instagram
charter
legacy
extract
communists
advent
heading
aired
privately
departments
morgan
weekly
controls
stops
##ixon
committees
masses
england
processed
latter
saudis
discussing
fallen
protesting
devil
viral
excerpt
wrongdo
##aws
divide
##aughters
representing
lights
##bloomberg
limb
prosecuted
males
executed
casting
hoax
mistakes
priority
principle
mcclos
rebu
architect
oklah
##onnen
riots
injuries
franklin
settlements
##igenous
karbala
msnbc
squad
manipulation
assessment
mercury
application
harassment
unclear
##controlled
lynd
##information
supplies
remedies
embarrass
fulfill
inevitable
antioxidants
cosm
unconstitutional
takfiri
muhammad
arkansas
unbelievable
slavery
surveillance
oklahoma
aaron
bis
bars
bones
cc
cra
craft
dans
dying
gains
gait
hits
iv
jasta
loud
mum
mak
nich
nons
oetting
tree
tips
vom
wise
wiscons
zucker
##eem
##words
##uations
##gh
##gbt
##oe
##ses
##rit
##rid
##ko
##ji
##zten
##ato
##arif
toll
##asy
##enting
whis
rever
##lyn
forec
##etary
##ethe
##ette
##uro
##chw
##illiant
alan
algor
tri
neoc
chest
noting
notable
orch
##abled
leban
amy
##outub
wors
##ende
evangel
embr
crush
yours
displ
overcome
blocking
perception
##enses
interfer
##ollar
indigenous
prepar
nowhere
underground
marked
decent
depth
idiot
persons
insiders
ell
immunity
happiness
musket
goods
cremt
##ternal
admits
centre
organize
israelis
advised
violate
##ught
airbn
transm
promoted
##anne
##respect
washingtons
arrog
mode
construct
racists
markets
processes
journey
tests
discussions
southe
arguing
ruled
attorneys
painting
##afi
circles
##elessly
teacher
lynchs
soldier
logic
ranch
feature
occurring
challenged
summ
rebell
accompan
catholics
traveling
permit
conversations
engineering
advocacy
patrol
beaten
diabet
hospitals
accomplished
confrontation
gesch
vehicles
insulting
concentration
manufactur
publishing
clothesline
spectrum
megyn
namely
transparent
restrictions
oligarch
frustrated
inquiry
blatant
sovereign
persecution
##comnewsartic
ashkenazi
##jection
cobb
hydrogen
alabama
##friend
atrocities
murphy
hannity
stomach
athlet
indoctr
boston
##bloombergcomnewsartic
algorith
cremtine
aht
bell
bib
cou
cattle
fuck
faster
gle
games
hob
kipp
lunch
length
lux
lgbt
mild
mamm
naz
ow
om
oval
pist
pays
rod
rnc
tor
ward
wenn
witch
##wall
##gle
##gel
##aul
##cor
##cape
##oft
##ras
##rist
##hai
##band
##bec
thro
thugs
##ini
##aten
##orist
##anor
##arms
##itors
##isations
##icity
##rep
##real
isol
##uten
pride
stan
##ura
##urity
##irts
##umes
trending
trips
##opoly
conqu
clock
##aint
cham
weird
##nton
exceed
ammon
unilateral
unemploy
##ichen
ages
prox
##ailed
adob
mein
meals
brad
bridge
enact
justified
perox
interference
##rator
scam
scared
reck
drones
expense
caller
##erte
strip
roots
factors
factory
factchec
defined
instances
meme
opens
##ifications
personality
studied
irony
sworn
explicit
communism
releases
denying
httpwwwbloombergcomnewsartic
restore
meter
topics
einz
destructive
occasion
affir
processing
missiles
involve
revealing
treatments
trading
walls
epic
contribute
unfold
unfair
progressives
protester
christianity
burning
picked
defeating
welding
correctness
characteristics
performed
subsid
zionism
drawing
dissident
zeit
##maker
updated
packaging
intellectuals
cuba
cuban
feeding
dictator
disgust
shootings
outrageous
##namon
prayer
attractive
territories
##immy
bonds
japanese
advertising
emphasis
##opathic
retailers
replacement
ahmed
sabot
konnte
adults
pumpkin
vulnerable
illustration
wurde
clashes
cinnamon
dolly
kirk
genocide
phrase
elderly
proclaim
assemb
bureaucrat
datab
kremlin
inappropriate
empty
episode
erklart
simultaneously
presumably
riyadh
ax
bn
bio
bitter
benn
cyn
cucks
dod
gor
gear
gained
jac
nc
oce
ober
oath
qaeda
rw
ring
rival
slam
tie
tied
tiny
va
yoda
##vol
##iking
##wa
##was
##wischen
##uish
##uhr
##night
##aq
##san
##rac
##rors
##youtub
##most
##mals
##hi
##ded
##fax
##qus
##zed
##edly
ans
##itious
##icop
##omagn
##stone
##style
reelection
##eterm
stere
stored
stocks
##cht
##ims
albert
trick
trash
shocked
##essing
habits
frag
clip
clown
clothing
##acs
chim
##ocaust
sue
liz
lifet
lect
uss
user
unh
unif
##iffe
polize
brics
resem
cruel
gross
##ogs
disrespect
blank
blocked
accum
accuse
##ultz
medias
##aching
acted
rightwing
##onduct
impart
assured
drone
drunk
longstanding
surplus
cares
loving
inspir
signal
signature
glad
discipl
swamp
secretly
extend
slattery
deter
captain
earned
prevention
christmas
christopher
secured
careful
palace
skill
visiting
##apping
damit
armen
excited
##html
protecting
statist
influential
##edients
epste
golden
sufficient
bloody
embed
wondering
detailed
ethical
capitalist
holocaust
replaced
defeated
addresses
vitamins
behavi
occupy
appointment
neighbors
rubin
title
sadly
jersey
frankly
psychological
dismant
conscience
implications
degrees
surfaced
universal
moroccan
routine
grabbing
exclusively
acknowledge
mandate
belonging
producer
duties
selbst
manufacturing
praised
ingredients
stimul
shouting
brave
hanging
masculinity
sponsored
oversight
revolt
mapes
recovery
thoroughly
assassination
sophistic
endorsed
dramatic
powder
scrut
bubble
ceasefire
perceived
tshirt
grocery
infamous
gilbert
lynda
oettinger
forecast
evangelical
diabetes
adobo
peroxide
##omagnetic
stereotyp
epsteins
bc
bol
batch
cgi
ding
dent
dust
dra
dro
fda
ga
gdp
hier
ib
jahr
jimmy
lam
ni
nong
osc
pitch
ros
rud
rice
sinc
tata
wre
wil
wats
wolf
waves
##iences
##wal
##uendo
##gang
##not
##oen
##sis
##rent
##rust
##kel
##ties
##held
##bage
##fund
##zero
thick
##esp
##ede
##educ
##anan
toosi
##icism
##aska
##otte
##oler
##amel
##amene
stressed
##ching
##ima
##sect
##umm
shrim
##ulent
##essa
heal
healing
neu
clint
seit
##ocument
##pping
sunn
weiß
abb
unit
unrelated
whoever
butt
sauce
spenc
arbit
##udes
##ailing
newt
herb
##plan
enlight
plants
cran
crying
justin
justices
obtain
##ountable
timing
##aches
actors
interf
supplement
indicted
scot
serves
marine
##ikh
assad
driver
relatively
throwing
helicop
owns
addict
deficit
surge
worker
persu
instr
instruct
##ounce
signals
charitable
highway
attackers
organisations
##azou
##why
freely
gegen
patient
locked
brainw
engaging
steven
seconds
photography
publ
calm
mosque
collection
bankrupt
commentator
announcing
situations
complicated
divine
doubled
magic
favors
##hrer
successfully
collaps
urged
##sche
observ
labeled
associate
narc
favorable
teaching
familys
khamene
reviewing
suspension
garner
eggs
fairfax
prisoners
separat
rhazou
innuendo
windows
football
witnesses
fatal
pursuing
##from
frankl
tracking
advisor
maduro
##iciency
roundup
lifel
dieser
sweep
honestly
frequent
introduced
introduction
coordinated
disappoint
estimates
##incts
chronicles
##respons
taxpayer
revenge
pharma
hispanic
ironically
wwii
marxism
deliberately
whistleblower
ignorance
temporary
echo
dynam
galactic
scholars
devastating
prophet
francisco
license
occasions
misconduct
pedophile
genetically
hinwe
nvc
erschien
epidemic
taylor
suspicion
oxygen
entrepreneurs
ngos
wrongdoing
limbaugh
wisconsin
unemployment
##youtubecom
watson
shrimp
khamenei
bog
bitch
dry
flex
gard
gates
hs
houth
hiding
hij
halt
kat
linc
ome
rok
rating
raz
tout
tip
vess
viel
yang
zarif
##vd
##vest
##wort
##uan
##gy
##gender
##no
##aan
##oever
##rob
##kill
##mond
##math
##dling
##fi
thy
##enger
##orous
##icidal
##rey
##reen
##entions
##otion
bea
beans
beacon
reign
reverse
##olice
forcing
##amo
sta
stores
##chaft
##aying
deception
##thod
fright
wash
seats
exclud
theyd
lev
usled
spur
##rah
##raf
outlet
##apl
bruce
intoler
pledge
grid
uphold
obese
##ogr
disob
disord
sheer
theme
myst
twenty
scores
recip
recession
##uces
emailed
warming
moines
regards
decides
strang
depends
addressed
boom
respected
putins
##conf
parag
discred
antip
organizing
##aze
##ieren
militant
cleared
provoc
##ugen
sexist
capit
standoff
filip
##gery
citys
rapp
securite
metal
profits
moder
solar
stealing
calories
criter
greg
involves
facilities
arrests
cancel
landing
employed
##schild
checks
checking
checked
##etti
closest
significance
janet
cyr
electorate
sicher
assaulted
necessarily
imagined
avoiding
priorities
surrounded
requested
broader
approached
innov
rebels
indiana
cabr
empower
mobil
stretching
dirt
emerging
accuracy
session
substance
disgrace
laboratory
square
##hole
routinely
transformation
ratings
##ophobic
minimum
misogyny
neighborhoods
outlook
resolutions
motivated
##addafi
sheriffs
apologize
automatically
obligation
millennium
unnecess
torture
compromised
screaming
comparison
subsequent
dictatorship
coffee
arrangement
llc
uncovered
substantial
pertinent
fabric
divorce
jennifer
##topl
##author
unusual
airbnb
##ocumented
##thodox
bald
ceta
diver
fiction
foval
fisher
gig
gord
gmo
ganz
hiv
jam
jord
kor
kam
lind
mah
ohn
pit
pand
row
rick
roth
ruth
rural
sink
sets
tent
yog
yields
zwe
##ek
##vs
##iks
##mp
##mates
##horn
##hedge
##di
##fia
##found
##fish
##erving
##onies
##atures
##esome
##orrow
toil
##itivity
##itudes
##isse
##icy
##icing
##step
##iden
beating
reid
##utical
forest
prn
##ads
##semail
##terror
##umin
##they
shah
##ulously
heb
clin
cloud
notorious
suck
##ortions
ammun
##iah
saf
spy
spaces
agenc
pepper
containing
contamin
meets
bruss
manh
cruz
gruber
##ishes
disclosure
##aceutical
##ffect
appropri
compens
aftermath
scope
script
impression
verify
relent
relative
##athy
phoen
roy
roosh
wellbe
depending
monetary
persian
lethal
insert
inspired
ending
awaken
##conn
efficient
oppressed
subur
subpo
blackheads
clevel
sway
planes
##which
advances
##iov
activism
filter
moveon
morality
mindset
curt
liberate
companys
paytopl
lesson
aven
nightly
superv
superior
caliph
classes
noneth
nonmuslim
illegals
completed
visits
ballistic
testified
commented
traditions
accepting
##shit
dangers
intelligent
grounds
envoy
epa
masters
describing
urge
contributing
similarly
dominated
stayed
responding
replayed
suspected
gerade
ranks
printed
printing
archive
celebrity
celebrities
mccabe
zionists
channels
conclusions
enjoys
crypt
wishes
visitors
bottle
accusation
libyan
burned
kidn
pilgr
msm
landscape
pakistani
dubbed
fortune
obstruct
removing
demonstrations
vaccines
tunis
software
erstmals
ownership
guests
fundraiser
qualified
pharmaceutical
egyptian
dominant
ignorant
ancestry
quietly
maximum
auß
##gefell
##lickr
sustainable
sheeple
contradict
##inchief
fortunately
httpswwwyoutubecom
nervous
vendors
yellow
forgotten
ugly
##bodys
arthur
##ourgeois
nonsense
zuckerberg
obergefell
lifelong
lincoln
ammunition
phoenix
wellbeing
paytoplay
httpswwwyoutubecomwatch
buck
cited
dabe
daughters
fitness
fucking
gi
gel
gore
gif
hou
hated
hipp
kol
kitch
lists
mate
mids
nest
nurs
nazi
nhs
ot
ore
pace
pants
rar
rack
rely
rogue
slim
sque
uf
voll
vicious
waters
xen
yield
##eous
##word
##natural
##rag
##rog
##russ
##lide
##mans
##matic
##hour
##zb
thin
threw
##erity
##errest
##inations
##onents
##atollah
##ora
##edience
ange
##alle
tooth
tools
todd
incom
##isp
##ioned
isil
##igar
##olas
prasident
##urning
##ches
##chair
##seud
asyl
##oper
shill
shred
shield
##usive
hav
clo
seas
atom
chuck
##aker
liqu
##eman
##emark
##nten
useless
unle
unac
unarmed
allen
saved
sport
##uded
##udge
noise
acup
adam
offended
brilliant
resume
##iban
##amps
##lical
##inded
disqus
blm
blaming
##assen
attitudes
##raterrest
invented
indirect
counts
counties
considers
underage
verge
marco
##iker
drain
decor
incite
schultz
##ucht
rooms
guards
boeing
##heit
carrier
loaded
posting
insight
insists
believing
awful
kek
muscles
mafia
charlie
memor
opio
discour
admitting
antig
reader
healthier
##ullah
extraterrest
info
##ologist
sexism
transcript
transgender
redd
promising
barrel
podcast
raises
christie
##ucted
nominated
massac
requiring
listening
nonv
illegit
choosing
miser
tested
industries
treating
arabias
favored
hostility
moments
firearms
babel
homeland
hearts
embrace
prevented
churches
strategist
assaults
suspicious
criticize
totalitarian
communicate
portion
approaching
hacks
austr
##onnell
unlaw
struggles
cooper
##worth
##works
competitive
advisory
hypothes
deployment
mountains
consultant
transferred
bosses
mansion
producers
foolish
sustained
exorcism
swedish
resolve
shopify
baghd
crackdown
ayatollah
hunting
guaranteed
pesticide
##winning
observer
skept
transparency
croatian
antimuslim
##annannannann
pocket
hindus
solely
crystall
carrots
distribution
vigil
militarized
sacrific
aerial
lonu
irrelev
legitimacy
retirement
withdraw
casualties
kaeper
lewinsky
estranged
buddh
fsb
triump
httpwwwbloombergcomnewsarticles
bennett
sophisticated
scrutiny
spencer
publisher
jordan
nonetheless
dabei
houston
asylum
extraterrestrial
baghdad
bone
bild
bases
cu
cf
dare
fert
hates
lag
lake
nu
naled
oc
pose
puss
pseud
rome
sid
sod
song
sake
sorts
tone
tear
vib
wound
##eur
##ihood
##western
##uum
##gans
##ae
##cott
##oh
##ls
##mm
##making
##jamin
##jewish
##fady
##pers
##ati
##enz
##itate
##isons
##icable
##otr
##sticker
beim
##olved
##eting
stur
stem
stake
##ader
##irds
alarm
##think
##theless
conway
haus
neck
sealed
seeds
chaff
##akis
weigh
weiners
liked
examin
oral
##iaut
unions
##alling
spear
adj
advers
soy
evolution
brains
residence
##pling
##pless
mankind
plastic
crop
crude
##ograp
disastr
blowing
thereby
demographic
##ews
knock
medi
likewise
##aving
undocumented
myster
computers
compelled
servers
##ossom
consol
marks
flipping
##ikan
assigned
wrest
##atern
founding
wherever
mining
defence
realizing
takeover
carl
letzten
install
instru
awesome
keine
muscle
matri
nevertheless
admission
followup
talc
taliban
antir
##prop
explore
advancing
refers
slog
slaves
edition
operate
larry
interestingly
electing
geopolit
winter
restrain
cultiv
globally
models
administrative
threatens
##idding
calc
foia
sne
holder
pleaded
argues
divisive
execution
execute
rises
neglig
analog
hosted
nearby
references
employment
homose
functions
repeat
associates
domain
auto
filmmaker
khal
strategies
volume
reviewed
logical
logged
sooner
##owsky
garbage
robby
robots
searching
burst
scientist
hoped
portland
motives
correctly
microw
improved
darkness
collected
resource
accommod
martyr
penalt
participation
participate
tomorrow
##front
celebrated
patriarchy
contacted
precious
dispute
capture
##ascular
contractors
meaningless
districts
tension
literature
achieved
draws
villages
##americans
benjamin
jackson
gathered
accurately
ecu
mountain
berlin
conventional
reminded
suspects
infections
fighter
magazines
demonstrated
mandatory
consistently
implemented
spraying
fundament
schemes
praise
magnitude
gradually
hawai
guarantee
locker
whistleblowers
overwhelmingly
observers
tortured
temporarily
recruit
liberties
pornography
resignation
croatia
anticip
renewable
battles
pockets
converted
felony
guidelines
endorsement
quantum
impeachment
restaurant
lavrov
strictly
caucus
deleted
survivors
counterparts
appreciate
marginal
mortgage
incorrect
enhance
deportation
puppet
tanden
interfering
##funded
##zerohedge
rhazoui
beauty
rothschild
cleveland
caliphate
httpswwwyoutubecomwatchv
acupunct
nonviol
irrelevant
##ographer
disastrous
ave
aqu
aston
bold
bosn
bourgeois
cure
cair
df
ducks
eing
ease
erupt
fung
gem
gaddafi
hire
huss
iphone
jp
jake
kicking
lash
mish
mck
nah
nasty
nixon
pc
pitt
pyr
rage
ross
rene
rocks
sr
sle
sow
sag
sull
sample
tum
tant
tail
tap
tamp
tiss
tapper
tanks
void
wif
##ele
##uctions
##uably
##gt
##aid
##awn
##car
##overnment
##look
##hell
##bles
##boy
##bett
##fin
##fol
thu
thc
##erk
##atoes
##anim
##arming
inclus
insect
##isy
##entlich
##leading
beach
rech
reun
revers
##vey
##igt
onions
##eter
stump
stones
stark
stability
##urry
##iments
##irs
alr
alz
alkal
asleep
degr
deemed
trait
trapped
##estone
##usra
fried
##aco
##odt
libr
orange
orient
hassan
lean
##unft
unacc
doom
doors
spain
spoken
##rax
##endered
peers
adverse
offense
herbal
sober
briber
manosphere
elev
emo
##iped
blas
##obal
apples
##qua
invaded
twoth
quit
quake
##rooms
descend
maria
marry
poet
coh
covers
wellknown
formally
boo
realities
directions
finish
elabor
##airy
confused
confusion
##conne
paras
creep
nationality
senators
discourse
blackmail
highprof
talent
simulation
antif
irrespons
##prod
extrad
##tenberg
internation
transl
##attan
ideological
experiment
mete
metab
careers
fights
questioning
questionable
avo
##teen
convinc
viewers
latino
iranians
potent
recordings
directors
damning
##ophy
selfim
fallon
armored
facult
arguably
religions
stephen
executes
acceptance
angels
walked
multicult
credible
teachings
utility
audit
whatsoever
copies
trusted
pickup
chemotherapy
websites
##iberal
addressing
tribune
improving
panel
tweets
anthrax
documented
documentation
dietary
encouraging
punished
examine
desperately
exposes
mortar
horrific
advocate
unfortunate
pilot
amazon
expressing
landslide
adopt
laser
maintains
maintained
bonuses
mentor
melania
acquitted
preferred
attracted
confronted
abducted
##breaking
procedure
fingers
tourism
jeffrey
cardiov
volunteer
revenue
emphasized
ihm
##opathy
exploit
monitoring
lifted
prompting
##informed
libertarian
surprisingly
oligarchy
absorption
assumed
semiaut
menschen
demonstrators
emotionally
rifle
alquds
remarkable
uncertainty
bereits
unexpectedly
deplorables
indictment
isaac
pledged
prosperity
chicken
patriarchal
prejudice
pundits
##chwitz
rebellion
manufacturers
algorithms
jacob
lifetime
uniform
oscar
arbitr
instrument
erschienen
bogus
mystery
cabrera
agencys
##connected
kitchen
chaffetz
calcium
penalties
bribery
highprofile
cardiovascular
az
bend
bret
dance
dank
eager
eisen
fict
fisc
fuk
gins
gaming
horn
hiring
iii
ibn
jar
jav
jets
kal
kicked
konnen
lion
lap
laug
mp
mars
mumb
nj
nie
ngo
ought
pest
puc
pork
posed
pkk
ric
riv
rans
rail
ronald
uh
vent
vocal
wet
wag
wider
##eu
##va
##vor
##wr
##wan
##will
##upp
##uart
##gb
##gmailcom
##overs
##ros
##roup
##link
##mate
##mony
##ta
##har
##hot
##df
##eren
##inces
##oned
##enin
##eding
anch
inaug
inhab
##ita
##isor
##lections
bef
reass
rejection
##igm
stations
stages
stuart
##ums
##umer
trag
trends
##there
convert
##ula
fruit
fruits
client
##ainted
sext
seize
cheryl
notably
weed
exha
orthodox
##abil
usher
allerg
##acking
arter
##rav
##ellt
prescribed
herbs
evac
resigned
reserves
intrig
##aux
crown
grants
##licht
disreg
blitz
dems
##cling
partial
##ensible
knight
attending
interrupt
supplements
indians
indones
preten
##ucc
##alds
consens
desert
descent
desired
governing
vermont
fled
relies
relatives
phase
backl
belt
incest
inciting
remote
schul
joining
depict
deported
addiction
##phem
artist
realistic
endlich
lasting
smo
##aires
kevin
confisc
norway
simpl
antiter
